ffc0 
ffc0 
ffc0 
ffc0 
ffc0 
ffc0 
ffc0 
ffc0 
0080 
0040 
002a 
0020 
0019 
0015 
0012 
0010 
0040 
ff80 
0040 
0080 
0200 
0080 
0200 
0080 
0280 
0100 
0280 
0100 
0300 
0180 
0300 
0180 
0380 
0200 
0380 
0200 
0080 
0280 
0300 
0380 
0400 
0080 
0980 
